TRT-8401-EntropyCalibration2
x.1: 40037000
509: 40037000
510: 41a6df77
511: 3c010a14
512: 41880933
577: 41880933
578: 4148349c
579: 3b0264ca
580: 40d108fb
581: 40873e4a
646: 40873e4a
647: 3e85d90e
648: 3c80d4fc
649: 3e156348
714: 3e156348
715: 3cfd403a
716: 3c00db63
717: 403da205
782: 403da205
783: 417f98fc
848: 417f98fc
849: 4108a524
850: 3c010a14
851: 40c01ab4
852: 3f98bbf6
917: 3f98bbf6
918: 3ea53f24
919: 3c14f3b8
920: 3cfded6c
985: 3cfded6c
986: 3c71b43f
987: 3bb9f5c2
988: 400211bd
1053: 400211bd
1054: 410d73e6
1055: 418b8da0
1120: 418b8da0
1121: 410b3f96
1122: 3c010a14
1123: 409ab557
1188: 409ab557
1189: 41f365f3
1190: 3c010a14
1191: 41a7a8f4
1192: 40ffe083
1257: 40ffe083
1258: 40e53090
1259: 3c010a14
1260: 403c39c9
1325: 403c39c9
1326: 3f2c88e0
1327: 3c010a14
1328: 4105786f
1393: 4105786f
1394: 41cab341
1459: 41cab341
1460: 40de8270
1461: 3c010a14
1462: 40f96fbf
1527: 40f96fbf
1528: 4176d041
1529: 3c010a14
1530: 41956319
1531: 409b08f8
1596: 409b08f8
1597: 40b28cda
1598: 3c010a14
1599: 40b62b49
1664: 40b62b49
1665: 404e774d
1666: 3c010a14
1667: 40585c13
1732: 40585c13
1733: 4129efd8
1734: 41dfe6d3
1799: 41dfe6d3
1800: 40ac8f06
1801: 3c010a14
1802: 4081176c
1867: 4081176c
1868: 411b903d
1869: 3c010a14
1870: 40ebf5c5
1871: 4049d3dc
1936: 4049d3dc
1937: 3f55f421
1938: 3c010a14
1939: 3f5196ca
2004: 3f5196ca
2005: 3f062abb
2006: 3c01f3df
2007: 4036e5bf
2072: 4036e5bf
2073: 41a6399e
2074: 41e474fa
2139: 41e474fa
2140: 407b3337
2141: 3c010a14
2142: 40687825
2207: 40687825
2208: 407436d4
2209: 3c010a14
2210: 401f873c
2211: 4005898c
2276: 4005898c
2277: 3e88d423
2278: 34b9ef5f
2279: 3682b336
2344: 3682b336
2345: 3befb970
2346: 3bb9f445
2347: 3fae5699
2412: 3fae5699
2413: 414059e1
2478: 414059e1
2479: 40071632
2480: 3c010a14
2481: 3fed3430
2546: 3fed3430
2547: 40d8e609
2548: 3c010a14
2549: 40a7adf9
2550: 3fa219af
2615: 3fa219af
2616: 3ecb20d8
2617: 3c010a14
2618: 3edb9aef
2683: 3edb9aef
2684: 3e390451
2685: 3c07184a
2686: 4016ec3b
2751: 4016ec3b
2752: 419a7aa1
2753: 419d9d6a
2818: 419d9d6a
2819: 406ed678
2820: 3c010a14
2821: 40022d29
2886: 40022d29
2887: 411f57b4
2888: 3c010a14
2889: 411f57b4
2890: 3f97c7b5
2955: 3f97c7b5
2956: 3fd867fe
2957: 3c010a14
2958: 4002a31b
3023: 4002a31b
3024: 3ed2b674
3025: 3c010a14
3026: 4085c3f8
3091: 4085c3f8
3092: 417e7272
3093: 41ca1a59
3158: 41ca1a59
3159: 40624a89
3160: 3c010a14
3161: 4072e2ee
3226: 4072e2ee
3227: 40f4342f
3228: 3c010a14
3229: 40f4d733
3230: 40a11337
3295: 40a11337
3296: 3f57d056
3297: 3c010a14
3298: 3f41ee88
3363: 3f41ee88
3364: 3d7b4c5b
3365: 3c02a797
3366: 4069a27e
3431: 4069a27e
3432: 4215b6f8
3497: 4215b6f8
3498: 40a1a014
3499: 3c010a14
3500: 409b6f19
3565: 409b6f19
3566: 41bfc503
3567: 3c010a14
3568: 41b73df9
3569: 40b83482
3634: 40b83482
3635: 410b7269
3636: 3c010a14
3637: 410ec752
3702: 410ec752
3703: 406e8104
3704: 3c010a14
3705: 40ca8923
3770: 40ca8923
3771: 41c07422
3772: 4227ff90
3837: 4227ff90
3838: 40e3f82a
3839: 3c010a14
3840: 40c5a5bb
3905: 40c5a5bb
3906: 41be9d72
3907: 3c010a14
3908: 41be9d72
3909: 41012c6e
3974: 41012c6e
3975: 409e33d1
3976: 3c010a14
3977: 409bd603
4042: 409bd603
4043: 3fc34147
4044: 3c010a14
4045: 41301439
4110: 41301439
4111: 4234276a
4112: 428c2c93
4177: 428c2c93
4178: 412d4b4e
4179: 3c010a14
4180: 40e503fb
4245: 40e503fb
4246: 41b3786d
4247: 3c010a14
4248: 41a32b0e
4249: 409bce41
4314: 409bce41
4315: 3fc0e1ed
4316: 3c010a14
4317: 3ed9840c
4382: 3ed9840c
4383: 3e8045b2
4384: 3c02f00a
4385: 40ed60aa
4450: 40ed60aa
4451: 42061f90
4452: 42ac9661
4517: 42ac9661
4518: 413701a9
4519: 3c010a14
4520: 41126a9d
4585: 41126a9d
4586: 4202102a
4587: 3c010a14
4588: 42004963
4589: 412fa015
4654: 412fa015
4655: 4092920f
4656: 3c010a14
4657: 408de1d5
4722: 408de1d5
4723: 405a83d4
4724: 3c010a14
4725: 41b56a01
4790: 41b56a01
4791: 424db2be
4792: 42e8de99
4857: 42e8de99
4858: 4188f43d
4859: 3c010a14
4860: 4153b04d
4925: 4153b04d
4926: 421831fd
4927: 3c010a14
4928: 41e2a266
4929: 40272427
4994: 40272427
4995: 4189dadb
4996: 3c010a14
4997: 413f79e1
5062: 413f79e1
5063: 407f57c1
5064: 3c010a14
5065: 404893a5
5130: 404893a5
5131: 41e33cd4
5196: 41e33cd4
5197: 40f69921
5198: 3c010a14
5199: 40c52fa4
5264: 40c52fa4
5265: 421f4f74
5266: 3c010a14
5267: 426ecf1e
5268: 41a0f6ce
5333: 41a0f6ce
5334: 41ab8ecc
5335: 3c010a14
5336: 41ae1748
5401: 41ae1748
5402: 418bb314
5403: 3c010a14
5404: 414ea7c5
5469: 414ea7c5
5470: 42845c02
5471: 4297332f
5536: 4297332f
5537: 415ce2f3
5538: 3c010a14
5539: 41045724
5604: 41045724
5605: 41b66fe6
5606: 3c010a14
5607: 41f32b9e
5608: 40eeddf3
5673: 40eeddf3
5674: 4005a6b8
5675: 3c010a14
5676: 3fe76881
5741: 3fe76881
5742: 3fa2f56d
5743: 3c010a14
5744: 41f159ad
5809: 41f159ad
5810: 42a361e9
5811: 43042b11
5876: 43042b11
5877: 419f353f
5878: 3c010a14
5879: 412e730d
5944: 412e730d
5945: 42c28f1d
5946: 3c010a14
5947: 42c28f1d
5948: 41808082
6013: 41808082
6014: 41a78d92
6015: 3c010a14
6016: 41a5d0f7
6081: 41a5d0f7
6082: 41bb315c
6083: 3c010a14
6084: 421d25e5
6149: 421d25e5
6150: 42c54ca1
6151: 433d59f6
6216: 433d59f6
6217: 41e51d63
6218: 3c010a14
6219: 41cd226e
6284: 41cd226e
6285: 42bb1e6b
6286: 3c010a14
6287: 42bb1e6b
6288: 41dd6086
6353: 41dd6086
6354: 411d71a5
6355: 3c010a14
6356: 411d71a5
6421: 411d71a5
6422: 40d68a8d
6423: 3c010a14
6424: 42930a25
6489: 42930a25
6490: 42fcb6a0
6491: 4356a66e
6556: 4356a66e
6557: 41f2a2eb
6558: 3c010a14
6559: 41b4afd0
6624: 41b4afd0
6625: 42ba9342
6626: 3c010a14
6627: 42d9a69f
6628: 424ffbaf
6693: 424ffbaf
6694: 4105453b
6695: 0
6696: 0
6761: 0
6762: 3b27c900
6763: 3b94b9ff
6764: 423c8c38
6829: 423c8c38
6830: 437c71c7
6895: 437c71c7
6896: 42415d23
6897: 3c010a14
6898: 4236243f
6963: 4236243f
6964: 435cb9c9
6965: 3c010a14
6966: 43a4255b
6967: 432d5f20
7032: 432d5f20
7033: 42a0292b
7034: 3c010a14
7035: 42a5edf0
7100: 42a5edf0
7101: 4270729a
7102: 3c010a14
7103: 434fd523
7168: 434fd523
7169: 4446259d
7170: 445fdffc
7235: 445fdffc
7236: 43169a87
7237: 3c010a14
7238: 42e1de57
7303: 42e1de57
7304: 43e9aab3
7305: 3c010a14
7306: 43e84c8b
7307: 43665261
7372: 43665261
7373: 42ffecfc
7374: 3c010a14
7375: 42ecee4c
7440: 42ecee4c
7441: 42c871d8
7442: 3c010a14
7443: 4385b754
7508: 4385b754
7509: 447070e3
7510: 44ce1051
7575: 44ce1051
7576: 4379262d
7577: 3c010a14
7578: 4350182e
7643: 4350182e
7644: 443a0a1b
7645: 3c010a14
7646: 443973bf
7647: 439e39ca
7712: 439e39ca
7713: 42904b1e
7714: 3c010a14
7715: 42904b1e
7780: 42904b1e
7781: 428e9365
7782: 3c010a14
7783: 442211ff
7848: 442211ff
7849: 449cdfea
7850: 4528e436
7915: 4528e436
7916: 43b7cbfa
7917: 3c010a14
7918: 4391c43a
7983: 4391c43a
7984: 44ac13cb
7985: 3c010a14
7986: 44ac13cb
7987: 440e3e91
8052: 440e3e91
8053: 42c3a2b0
8054: 3c010a14
8055: 42c3a2b0
8120: 42c3a2b0
8121: 42b36c27
8122: 3c010a14
8123: 44bcc5f3
8188: 44bcc5f3
8189: 44eb50f4
8190: 4578a708
8255: 4578a708
8256: 440e09b7
8257: 3c010a14
8258: 43f52468
8323: 43f52468
8324: 45099076
8325: 3c010a14
8326: 45099076
8327: 448eb708
8392: 448eb708
8393: 430a4a8e
8394: 3c010a14
8395: 43096a96
8460: 43096a96
8461: 42b6c0b0
8462: 3c010a14
8463: 450707b4
8528: 450707b4
8529: 45844606
8530: 45f4a459
8595: 45f4a459
8596: 4474d809
8597: 3c010a14
8598: 44387ce9
8663: 44387ce9
8664: 45834f8c
8665: 3c010a14
8666: 459d8d69
8667: 451c706b
8732: 451c706b
8733: 4474e1ba
8734: 3c010a14
8735: 44746807
8800: 44746807
8801: 441caf3b
8802: 3c010a14
8803: 456565ca
8868: 456565ca
8869: 45d85518
8934: 45d85518
8935: 44cc2faf
8936: 3c010a14
8937: 44cc2faf
9002: 44cc2faf
9003: 45d1cc2a
9004: 3c010a14
9005: 460bd1ce
9006: 452f06fc
9071: 452f06fc
9072: 4568ce92
9073: 3c010a14
9074: 4556f479
9139: 4556f479
9140: 44a0cd91
9141: 3c010a14
9142: 45a6d785
9207: 45a6d785
9208: 4598cf09
9209: 45f2ec36
9274: 41e474fa
9275: 406a199e
9340: 41ca1a59
9341: 403e44cf
9406: 4356a66e
9407: 41d705e2
9472: 45f2ec36
9473: 44ea6756
9538: 45f2ec36
9539: 451907b9
9604: 451907b9
9605: 451907b9
9616: 4506b9e4
9637: 4506b9e4
(Unnamed Layer* 637) [Shuffle]_output: 3b6def64
9640: 44581ba0
(Unnamed Layer* 640) [Shuffle]_output: 3b8b191d
9643: 44913a68
9644: 44aa77f8
9645: 3c010a14
9646: 44a2b17e
9711: 44a2b17e
9712: 43f8bade
9777: 43f8bade
9778: 45038492
(Unnamed Layer* 654) [Shuffle]_output: 3b98e58a
9787: 417ec6f7
9794: 45038492
(Unnamed Layer* 658) [Shuffle]_output: 3b5257f4
9795: 44566238
9796: 44568641
9797: 3c010a14
9798: 44371f6b
9863: 44371f6b
9864: 43ac8902
9929: 43ac8902
9930: 44ba43f5
(Unnamed Layer* 672) [Shuffle]_output: 3b63abdd
9939: 3fa7d9d4
9946: 44ba43f5
(Unnamed Layer* 676) [Shuffle]_output: 3b903ba5
9947: 44503276
9948: 44502fb8
9949: 3c010a14
9950: 4405a771
10015: 4405a771
10016: 43815828
10081: 43815828
10082: 445aa4b4
(Unnamed Layer* 690) [Shuffle]_output: 3b858223
10091: 3ff23524
10098: 445aa4b4
(Unnamed Layer* 694) [Shuffle]_output: 3b791f3a
10099: 43d30e24
10100: 43d3239f
10101: 3c010a14
10102: 4392ab80
10167: 4392ab80
10168: 4316d42a
10233: 4316d42a
10234: 43efed86
10299: 41ca1a59
10300: 402874e8
10365: 4356a66e
10366: 4202955f
(Unnamed Layer* 712) [Shuffle]_output: 3b8004c1
10375: 3fa71fbf
(Unnamed Layer* 715) [Shuffle]_output: 3b820cd2
10378: 43dc5b1c
10379: 43dc56e3
10446: 43efed86
10447: 43efed86
(Unnamed Layer* 725) [Shuffle]_output: 0
10448: 0
10449: 43dc56e3
10450: 3c010a14
10451: 43990a4b
10516: 43990a4b
10517: 43061b12
10582: 43061b12
10583: 443c549a
(Unnamed Layer* 739) [Shuffle]_output: 3beb43a6
10592: 41ee1459
(Unnamed Layer* 742) [Shuffle]_output: 3a366715
10595: 4303a5a8
10596: 430c1ce6
10663: 443c549a
10664: 443c549a
(Unnamed Layer* 752) [Shuffle]_output: 0
10665: 0
10666: 430c1ce6
10667: 3c010a14
10668: 42a3601b
10733: 42a3601b
10734: 41c5840a
10799: 41c5840a
10800: 426991de
(Unnamed Layer* 766) [Shuffle]_output: 3bee2fad
10809: 44d85604
(Unnamed Layer* 769) [Shuffle]_output: 0
10812: 0
10813: 44d85604
10880: 426991de
10881: 426991de
(Unnamed Layer* 779) [Shuffle]_output: 3a1f046a
10882: 408d2836
10883: 44d8202f
10884: 3c010a14
10885: 44d8202f
10950: 44d8202f
10951: 43d7c3d7
11016: 43d7c3d7
11017: 44b2ea44
(Unnamed Layer* 793) [Shuffle]_output: 3c01080c
11026: 4506b7c5
11093: 44b2ea44
11094: 44b2ea44
(Unnamed Layer* 802) [Shuffle]_output: 0
11095: 0
11096: 4506b7c5
11097: 3b813265
11098: 4504ac51
11163: 4504ac51
11164: 446f9c92
11229: 446f9c92
11230: 44ca11eb
11241: 44ca11eb
11262: 44ca11eb
(Unnamed Layer* 819) [Shuffle]_output: 3b1f217e
11265: 43dca32b
(Unnamed Layer* 822) [Shuffle]_output: 3bb27ffb
11268: 448bc2f4
11269: 44a7829f
11270: 3c010a14
11271: 44a860e8
11336: 44a860e8
11337: 43948bc2
11402: 43948bc2
11403: 44d713eb
(Unnamed Layer* 836) [Shuffle]_output: 3b590973
11412: 41c46cf3
11419: 44d713eb
(Unnamed Layer* 840) [Shuffle]_output: 3b958c16
11420: 4479426d
11421: 4477b75e
11422: 3c010a14
11423: 441a9b84
11488: 441a9b84
11489: 43d69948
11554: 43d69948
11555: 448f4f8e
(Unnamed Layer* 854) [Shuffle]_output: 3b70910c
11564: 43af8d18
11571: 448f4f8e
(Unnamed Layer* 858) [Shuffle]_output: 3b89c8b9
11572: 441905cb
11573: 44278a27
11574: 3c010a14
11575: 43e052c7
11640: 43e052c7
11641: 435b245e
11706: 435b245e
11707: 44673b55
(Unnamed Layer* 872) [Shuffle]_output: 3ba34f69
11716: 4397d30e
11723: 44673b55
(Unnamed Layer* 876) [Shuffle]_output: 3b3d8495
11724: 43a9cd95
11725: 4400c0eb
11726: 3c010a14
11727: 43ce35cd
11792: 43ce35cd
11793: 4324fd90
11858: 4324fd90
11859: 44225685
(Unnamed Layer* 890) [Shuffle]_output: 3b37bb3a
11868: 43861381
(Unnamed Layer* 893) [Shuffle]_output: 3b2ea06f
11871: 439c75ff
11872: 43c537b0
11939: 44225685
11940: 44225685
(Unnamed Layer* 903) [Shuffle]_output: 3b1dc88d
11941: 434ba906
11942: 43e88402
11943: 3c010a14
11944: 43ad776d
12009: 43ad776d
12010: 4315872d
12075: 4315872d
12076: 443c9a56
(Unnamed Layer* 917) [Shuffle]_output: 3bb4e274
12085: 4223b4df
(Unnamed Layer* 920) [Shuffle]_output: 3b1a5de2
12088: 43ab7073
12089: 43a7920a
12156: 443c9a56
12157: 443c9a56
(Unnamed Layer* 930) [Shuffle]_output: 0
12158: 0
12159: 43a7920a
12160: 3c010a14
12161: 438e9ad2
12226: 438e9ad2
12227: 4316d3ac
12292: 4316d3ac
12293: 43bd5718
(Unnamed Layer* 944) [Shuffle]_output: 3b8a8326
12302: 44400caa
(Unnamed Layer* 947) [Shuffle]_output: 3a4269da
12305: 43220539
12306: 44464bdd
12373: 43bd5718
12374: 43bd5718
(Unnamed Layer* 957) [Shuffle]_output: 3b3e8221
12375: 43080624
12376: 444caea7
12377: 3c010a14
12378: 44327deb
12443: 44327deb
12444: 434a399d
12509: 434a399d
12510: 4488d778
(Unnamed Layer* 971) [Shuffle]_output: 3bbf1587
12519: 44959d5a
12586: 4488d778
12587: 4488d778
(Unnamed Layer* 980) [Shuffle]_output: 3b05f75b
12588: 437ec7fc
12589: 4496661b
12590: 3c010a14
12591: 4496661b
12656: 4496661b
12657: 440ed76e
12722: 440ed76e
12723: 44d8a3bd
12734: 44d8a3bd
12755: 44d8a3bd
(Unnamed Layer* 997) [Shuffle]_output: 3b35d2be
12758: 43c0d12a
(Unnamed Layer* 1000) [Shuffle]_output: 3ba726eb
12761: 448c5013
12762: 44834715
12763: 3c010a14
12764: 448928f6
12829: 448928f6
12830: 43cac96a
12895: 43cac96a
12896: 44db870a
(Unnamed Layer* 1014) [Shuffle]_output: 3ba30e19
12905: 436f406c
12912: 44db870a
(Unnamed Layer* 1018) [Shuffle]_output: 3b3e0457
12913: 4421a1f4
12914: 44313e91
12915: 3c010a14
12916: 4417de43
12981: 4417de43
12982: 434a49bf
13047: 434a49bf
13048: 44936f5f
(Unnamed Layer* 1032) [Shuffle]_output: 3ba0441d
13057: 43ea3e5a
13064: 44936f5f
(Unnamed Layer* 1036) [Shuffle]_output: 3b439975
13065: 43df7bdc
13066: 44296eff
13067: 3c010a14
13068: 43b0b8cd
13133: 43b0b8cd
13134: 430f3301
13199: 430f3301
13200: 43e8018c
(Unnamed Layer* 1050) [Shuffle]_output: 3bc51727
13209: 43f7f31b
13216: 43e8018c
(Unnamed Layer* 1054) [Shuffle]_output: 3af3e7cb
13217: 42db43bd
13218: 43f745f8
13219: 3c010a14
13220: 43edd7a7
13285: 43edd7a7
13286: 433a7be9
13351: 433a7be9
13352: 441ca671
(Unnamed Layer* 1068) [Shuffle]_output: 3b1dab89
13361: 43667303
(Unnamed Layer* 1071) [Shuffle]_output: 3b755f18
13364: 435c9521
13365: 439d0803
13432: 441ca671
13433: 441ca671
(Unnamed Layer* 1081) [Shuffle]_output: 3ae23291
13434: 430a1ba6
13435: 439e26bc
13436: 3c010a14
13437: 4359c889
13502: 4359c889
13503: 42b58dcb
13568: 42b58dcb
13569: 43d6ce02
(Unnamed Layer* 1095) [Shuffle]_output: 3ba11a86
13578: 436c6364
(Unnamed Layer* 1098) [Shuffle]_output: 0
13581: 0
13582: 436c6364
13649: 43d6ce02
13650: 43d6ce02
(Unnamed Layer* 1108) [Shuffle]_output: 3b41eda1
13651: 431b8e74
13652: 4390fbb6
13653: 3c010a14
13654: 437c4956
13719: 437c4956
13720: 42e6d064
13785: 42e6d064
13786: 43a008d1
(Unnamed Layer* 1122) [Shuffle]_output: 3b095739
13795: 4391a51b
(Unnamed Layer* 1125) [Shuffle]_output: 3b06b305
13798: 43e5280a
13799: 440c2d78
13866: 43a008d1
13867: 43a008d1
(Unnamed Layer* 1135) [Shuffle]_output: 3b7419a3
13868: 43157b63
13869: 4419bb69
13870: 3c010a14
13871: 440d7753
13936: 440d7753
13937: 438167f6
14002: 438167f6
14003: 4488d669
(Unnamed Layer* 1149) [Shuffle]_output: 3b8ed700
14012: 446fcf0a
14079: 4488d669
14080: 4488d669
(Unnamed Layer* 1158) [Shuffle]_output: 3b6675dc
14081: 43e34143
14082: 447b80b7
14083: 3c010a14
14084: 444d7d93
14149: 444d7d93
14150: 438d49ef
14215: 438d49ef
14216: 44658341
14227: 44658341
14248: 44658341
(Unnamed Layer* 1175) [Shuffle]_output: 3b2f51de
14251: 43b9ea30
(Unnamed Layer* 1178) [Shuffle]_output: 3baa677c
14254: 44178aeb
14255: 4437ca7a
14256: 3c010a14
14257: 43fa4d25
14322: 43fa4d25
14323: 4323414f
14388: 4323414f
14389: 4445d300
(Unnamed Layer* 1192) [Shuffle]_output: 3b468d49
14398: 42f63e67
14405: 4445d300
(Unnamed Layer* 1196) [Shuffle]_output: 3b9eca29
14406: 43f36edd
14407: 43ec023d
14408: 3c010a14
14409: 43e8a0a5
14474: 43e8a0a5
14475: 430464ee
14540: 430464ee
14541: 44174592
(Unnamed Layer* 1210) [Shuffle]_output: 3b5f3878
14550: 4339ca9f
14557: 44174592
(Unnamed Layer* 1214) [Shuffle]_output: 3b92750d
14558: 43abb0cb
14559: 43b1dde7
14560: 3c010a14
14561: 43652b04
14626: 43652b04
14627: 42af3ba8
14692: 42af3ba8
14693: 43e507a8
(Unnamed Layer* 1228) [Shuffle]_output: 3ba7d83a
14702: 43cbc237
14709: 43e507a8
(Unnamed Layer* 1232) [Shuffle]_output: 3b3472f3
14710: 43202356
14711: 43d25681
14712: 3c010a14
14713: 43cc116a
14778: 43cc116a
14779: 4310e7a9
14844: 4310e7a9
14845: 441e7781
(Unnamed Layer* 1246) [Shuffle]_output: 3b53576b
14854: 432fe77d
(Unnamed Layer* 1249) [Shuffle]_output: 3b6dd67a
14857: 43531136
14858: 43844ab8
14925: 441e7781
14926: 441e7781
(Unnamed Layer* 1259) [Shuffle]_output: 3a85eb5b
14927: 429ed24a
14928: 438ff06a
14929: 3c010a14
14930: 433911df
14995: 433911df
14996: 4296312a
15061: 4296312a
15062: 43ac4b64
(Unnamed Layer* 1273) [Shuffle]_output: 3b82a077
15071: 432200d1
(Unnamed Layer* 1276) [Shuffle]_output: 3a8b5150
15074: 42a35224
15075: 432c6a37
15142: 43ac4b64
15143: 43ac4b64
(Unnamed Layer* 1286) [Shuffle]_output: 3b393a12
15144: 42e3e5cf
15145: 4355cba7
15146: 3c010a14
15147: 430a53bb
15212: 430a53bb
15213: 425439c7
15278: 425439c7
15279: 42ea97a8
(Unnamed Layer* 1300) [Shuffle]_output: 3b0e65bf
15288: 439700bd
(Unnamed Layer* 1303) [Shuffle]_output: 3a928b35
15291: 42e0a8d0
15292: 43a4dff0
15359: 42ea97a8
15360: 42ea97a8
(Unnamed Layer* 1313) [Shuffle]_output: 3b963bba
15361: 428487ad
15362: 43b07d5d
15363: 3c010a14
15364: 4374ce32
15429: 4374ce32
15430: 42712eda
15495: 42712eda
15496: 43622c12
(Unnamed Layer* 1327) [Shuffle]_output: 3ba34f7e
15505: 44113bef
15572: 43622c12
15573: 43622c12
(Unnamed Layer* 1336) [Shuffle]_output: 3b3d82e8
15574: 429b51b1
15575: 441ddc0e
15576: 3c010a14
15577: 43d58ec8
15642: 43d58ec8
15643: 42f1b174
15708: 42f1b174
15709: 43d65e17
15720: 43d65e17
15741: 43d65e17
(Unnamed Layer* 1353) [Shuffle]_output: 3b9ac021
15744: 43079e57
(Unnamed Layer* 1356) [Shuffle]_output: 3b4ea0de
15747: 432ba1a3
15748: 4387449d
15749: 3c010a14
15750: 4375bb81
15815: 4375bb81
15816: 427ab9f1
15881: 427ab9f1
15882: 43877f93
(Unnamed Layer* 1370) [Shuffle]_output: 3b418b04
15891: 422fee03
15898: 43877f93
(Unnamed Layer* 1374) [Shuffle]_output: 3ba14aeb
15899: 43295db4
15900: 4338e4ad
15901: 3c010a14
15902: 430185f5
15967: 430185f5
15968: 4248a758
16033: 4248a758
16034: 438a2598
(Unnamed Layer* 1388) [Shuffle]_output: 3b6dd6ec
16043: 431ec860
16050: 438a2598
(Unnamed Layer* 1392) [Shuffle]_output: 3b8b251f
16051: 4314f73b
16052: 4354cf7f
16053: 3c010a14
16054: 42fafeb7
16119: 42fafeb7
16120: 42087e82
16185: 42087e82
16186: 42f677e5
(Unnamed Layer* 1406) [Shuffle]_output: 3bb5acc2
16195: 43df1b15
16202: 42f677e5
(Unnamed Layer* 1410) [Shuffle]_output: 3b18c8c4
16203: 4211e92a
16204: 43de26d2
16205: 3c010a14
16206: 438a73ab
16271: 438a73ab
16272: 430d9d96
16337: 430d9d96
16338: 43cbdede
(Unnamed Layer* 1424) [Shuffle]_output: 3afd5891
16347: 42a92287
(Unnamed Layer* 1427) [Shuffle]_output: 3b4a7610
16350: 42415a58
16351: 42dae395
16418: 43cbdede
16419: 43cbdede
(Unnamed Layer* 1437) [Shuffle]_output: 3b3b01c3
16420: 4309fe23
16421: 43306271
16422: 3c010a14
16423: 43262396
16488: 43262396
16489: 426dcd3d
16554: 426dcd3d
16555: 439c05a4
(Unnamed Layer* 1451) [Shuffle]_output: 3b5195ab
16564: 423e82f2
(Unnamed Layer* 1454) [Shuffle]_output: 3ac95563
16567: 42578b22
16568: 427b5e15
16635: 439c05a4
16636: 439c05a4
(Unnamed Layer* 1464) [Shuffle]_output: 3b4de394
16637: 42fc0e2b
16638: 432603e1
16639: 3c010a14
16640: 42e77d59
16705: 42e77d59
16706: 4221e00a
16771: 4221e00a
16772: 430779cb
(Unnamed Layer* 1478) [Shuffle]_output: 3959abfb
16781: 40bec2c2
(Unnamed Layer* 1481) [Shuffle]_output: 3b39e4b5
16784: 42c332b9
16785: 42cd44a7
16852: 430779cb
16853: 430779cb
(Unnamed Layer* 1491) [Shuffle]_output: 3b9e518e
16854: 42afe509
16855: 42e20bd4
16856: 3c010a14
16857: 42c76090
16922: 42c76090
16923: 41df069b
16988: 41df069b
16989: 43042268
(Unnamed Layer* 1505) [Shuffle]_output: 3b8e55c1
16998: 436c7477
17065: 43042268
17066: 43042268
(Unnamed Layer* 1514) [Shuffle]_output: 3b67768b
17067: 426e526e
17068: 43826b93
17069: 3c010a14
17070: 4368c068
17135: 4368c068
17136: 4281ca58
17201: 4281ca58
17202: 43a751b6
17213: 43a751b6
17234: 43a751b6
(Unnamed Layer* 1531) [Shuffle]_output: 3b3b37a8
17237: 423fb536
(Unnamed Layer* 1534) [Shuffle]_output: 3ba47537
17240: 43553ea4
17241: 435d00e0
17242: 3c010a14
17243: 431f0178
17308: 431f0178
17309: 4258fd71
17374: 4258fd71
17375: 4341fb8e
(Unnamed Layer* 1548) [Shuffle]_output: 3b20966d
17384: 422898fb
17391: 4341fb8e
(Unnamed Layer* 1552) [Shuffle]_output: 3bb1c5c5
17392: 43059f06
17393: 430def0c
17394: 3c010a14
17395: 430def0c
17460: 430def0c
17461: 4239f7a4
17526: 4239f7a4
17527: 431a8c5a
(Unnamed Layer* 1566) [Shuffle]_output: 3b520776
17536: 42fdf276
17543: 431a8c5a
(Unnamed Layer* 1570) [Shuffle]_output: 3b990d7a
17544: 42b74efc
17545: 43094095
17546: 3c010a14
17547: 42d833e5
17612: 42d833e5
17613: 4245bae4
17678: 4245bae4
17679: 431839ea
(Unnamed Layer* 1584) [Shuffle]_output: 3b7c4f5d
17688: 43475045
17695: 431839ea
(Unnamed Layer* 1588) [Shuffle]_output: 3b83ea1d
17696: 429b9e33
17697: 43582612
17698: 3c010a14
17699: 434140fa
17764: 434140fa
17765: 42ecf55e
17830: 42ecf55e
17831: 4345a0d8
(Unnamed Layer* 1602) [Shuffle]_output: 3b019e44
17840: 429cb8d1
(Unnamed Layer* 1605) [Shuffle]_output: 3b2b62dd
17843: 424a2ea8
17844: 42c1f31f
17911: 4345a0d8
17912: 4345a0d8
(Unnamed Layer* 1615) [Shuffle]_output: 3b57231d
17913: 42a13e64
17914: 430be37a
17915: 3c010a14
17916: 42ec6b9b
17981: 42ec6b9b
17982: 42478a27
18047: 42478a27
18048: 431d0c5a
(Unnamed Layer* 1629) [Shuffle]_output: 3b1d11ac
18057: 4224e74d
(Unnamed Layer* 1632) [Shuffle]_output: 3b117c3f
18060: 422e3ece
18061: 424d3e53
18128: 431d0c5a
18129: 431d0c5a
(Unnamed Layer* 1642) [Shuffle]_output: 3b559698
18130: 4256b71f
18131: 42a0ee33
18132: 3c010a14
18133: 42a2e106
18198: 42a2e106
18199: 41ee4c8a
18264: 41ee4c8a
18265: 429d768e
(Unnamed Layer* 1656) [Shuffle]_output: 3a9762d5
18274: 419b045f
(Unnamed Layer* 1659) [Shuffle]_output: 3b12bf28
18277: 425c9a0e
18278: 4276e4be
18345: 429d768e
18346: 429d768e
(Unnamed Layer* 1669) [Shuffle]_output: 3b92d97f
18347: 42224285
18348: 428080ba
18349: 3c010a14
18350: 427b64bb
18415: 427b64bb
18416: 41ab372a
18481: 41ab372a
18482: 42910312
(Unnamed Layer* 1683) [Shuffle]_output: 3ab0c658
18491: 42653725
18558: 42910312
18559: 42910312
(Unnamed Layer* 1692) [Shuffle]_output: 3bd5def6
18560: 427ca7cc
18561: 428c8645
18562: 3c010a14
18563: 42974012
18628: 42974012
18629: 40e4c984
18694: 40e4c984
18695: 42190dd6
