TRT-8003-MinMaxCalibration
input_0: 3e648fea
1156: 3fa02b9e
x.9: 3e13f65e
974: 3e0a8926
x.17: 3e0a8926
1168: 3e0f0b01
1159: 3dbf33b7
out.7: 3de3db33
978: 3d3c9a04
1162: 3d1206f5
out.19: 3d2ccdd8
981: 3d2ccdd8
1165: 3c8058fc
identity.2: 3e393645
out.31: 3d2c9692
986: 3e354d56
987: 3e0ae333
1171: 3d317794
out.39: 3d9ac589
990: 3d9ac589
1174: 3d9f2bcf
out.45: 3e2d967e
993: 3e2d967e
1177: 3d2f330a
out.51: 3e38a188
996: 3e6dca01
997: 3e6dca01
1180: 3d011a64
out.57: 3d7d4308
1000: 3d113b75
1183: 3c996839
out.63: 3d5a8bc1
1003: 3d5a8bc1
1186: 3c3af519
out.69: 3d4ae997
1006: 3e6d7dc6
1007: 3e6d7dc6
1198: 3de28c09
1189: 3d2c7460
out.75: 3dd034e2
1010: 3dd034e2
1192: 3d305d5d
out.81: 3d7fad1e
1013: 3d7fad1e
1195: 3cce52a4
identity.4: 3e9364b0
out.87: 3d7688ca
1018: 3e921dc8
1019: 3e921dc8
1201: 3dd25706
out.93: 3d9628b4
1022: 3d9628b4
1204: 3ddf2cbc
out.99: 3e127174
1025: 3dcf9ae4
1207: 3d4bc3de
out.105: 3e22bafe
1028: 3e850623
1029: 3e850623
1210: 3d887f14
out.111: 3d98605d
1032: 3d94f419
1213: 3d3e5a79
out.117: 3d884b2f
1035: 3d884b2f
1216: 3c8fd3e5
out.123: 3d65787d
1038: 3e832dbe
1039: 3e832dbe
1219: 3d55d885
out.129: 3d6c502e
1042: 3d0fc221
1222: 3cc23ce3
out.135: 3d09fbef
1045: 3d09fbef
1225: 3c248209
out.141: 3d12a8b3
1048: 3e833a2b
1049: 3e833a2b
1237: 3d92c3a3
1228: 3daa1f47
out.147: 3df1db0a
1052: 3d8f5f3c
1231: 3d33231c
out.153: 3d395209
1055: 3d22745c
1234: 3ceeae78
identity.6: 3dfaaf3f
out.159: 3dd53fc3
1060: 3e49b514
1061: 3e49b514
1240: 3da81a51
out.165: 3dd7fcee
1064: 3dd7fcee
1243: 3d90e40c
out.171: 3dc78891
1067: 3dacd425
1246: 3d247979
out.177: 3e17d88c
1070: 3e513a8f
1071: 3e513a8f
1249: 3ce16e6a
out.56: 3d218a7a
1074: 3d20275d
1252: 3cc5b01f
out.62: 3cff7a1f
1077: 3cd35f1f
1255: 3bef23e6
out.68: 3ce29e4e
1080: 3e4cbad2
1081: 3e4cbad2
1258: 3d1c6a46
out.74: 3d525f24
1084: 3d247658
1261: 3c7ca7a7
out.80: 3ccf5eea
1087: 3c92db7a
1264: 3c07e767
out.86: 3ceaf247
1090: 3e4df369
1091: 3e4df369
1267: 3d17a845
out.92: 3d88cecd
1094: 3d5a17ca
1270: 3cbc695f
out.98: 3d5bf326
1097: 3d5bf326
1273: 3c4b62a2
out.104: 3d6da8f1
1100: 3e4ab651
1101: 3e4ab651
1276: 3cfb79dc
out.183: 3d88c86a
1104: 3d1400c9
1279: 3cda0db1
out.189: 3d66c8df
1107: 3d66c8df
1282: 3c8cc5c7
out.195: 3d6bc674
1110: 3e413324
1111: 3e413324
1294: 3cc5b8c7
1285: 3d2eef18
out.6: 3dab7443
1114: 3d2a8d03
1288: 3c8fbbcc
out.18: 3d0b3d73
1117: 3d0b3d73
1291: 3c3cbac9
identity.1: 3e6cfa2b
out.30: 3d9f5ebe
1122: 3e9800ef
1123: 3e9800ef
1297: 3d9ea2a7
out.38: 3d2141a0
1126: 3ce240ba
1300: 3c98ad08
out.44: 3d002cd0
1129: 3cd0c6eb
1303: 3bb321e1
out.50: 3d6347d0
1132: 3e995bd0
1133: 3e995bd0
1306: 3dc9368e
out.5: 3d3ba304
1136: 3ce7b08f
1309: 3c722fd1
out.17: 3cfc578c
1139: 3cecc8a1
1312: 3b8b27d3
out.29: 3ddd2881
1142: 3ea833ee
1143: 3ea833ee
x.37: 3d9a94b5
x.41: 3d9a94b5
(Unnamed Layer* 174) [Constant]_output: 3bbe3169
1150: 3bbe3169
1151: 3e0733ae
1152: 399949ca
(Unnamed Layer* 178) [Shuffle]_output: 399949ca
output_0: 3e0729dd
